/**
  ******************************************************************************
  * @file    network_data_params.c
  * @author  AST Embedded Analytics Research Platform
  * @date    Sun Jun 25 00:38:02 2023
  * @brief   AI Tool Automatic Code Generator for Embedded NN computing
  ******************************************************************************
  * Copyright (c) 2023 STMicroelectronics.
  * All rights reserved.
  *
  * This software is licensed under terms that can be found in the LICENSE file
  * in the root directory of this software component.
  * If no LICENSE file comes with this software, it is provided AS-IS.
  ******************************************************************************
  */

#include "network_data_params.h"


/**  Activations Section  ****************************************************/
ai_handle g_network_activations_table[1 + 2] = {
  AI_HANDLE_PTR(AI_MAGIC_MARKER),
  AI_HANDLE_PTR(NULL),
  AI_HANDLE_PTR(AI_MAGIC_MARKER),
};




/**  Weights Section  ********************************************************/
AI_ALIGNED(32)
const ai_u64 s_network_weights_array_u64[829] = {
  0xbe8b7e2bbe8c1e9eU, 0xbe88b114be896765U, 0xbe862e52be8763faU, 0xbe8352fabe84ef20U,
  0xbe817aadbe82a956U, 0xbe7f5d95be80156aU, 0xbe798012be7bdd64U, 0xbe74313ebe7722c0U,
  0xbe700acabe72d40aU, 0xbe6adeebbe6dc06cU, 0xbe666f1cbe67c22eU, 0xbe61cc14be63c55dU,
  0xbe5cd3bebe5f7d8dU, 0xbe58c8debe5ad39aU, 0xbe53aaaebe556a3cU, 0xbe4eea8fbe51a6cdU,
  0xbe4a2ca6be4cbf1aU, 0xbe45b0debe47d607U, 0xbe406575be42ee28U, 0xbe3be7bfbe3de2b7U,
  0xbe36d694be3905f9U, 0xbe32f72abe349c7dU, 0xbe2e1a4bbe304867U, 0xbe299497be2b7d0dU,
  0xbe23c00dbe2692d6U, 0xbe1fce57be219667U, 0xbe1b3538be1d9b80U, 0xbe1603efbe187373U,
  0xbe119d06be13dae1U, 0xbe0bdb46be0ecb8bU, 0xbe08413ebe0a7dcaU, 0xbe0405cfbe063dc9U,
  0xbdfc6ec7be0139d4U, 0xbdf44c91bdf7d93dU, 0xbde99980bdeefa18U, 0xbde0ef19bde526cdU,
  0xbdd7137cbddbe804U, 0xbdcd71f4bdd2ca8bU, 0xbdc3cf2bbdc8f997U, 0xbdba9223bdbe2a21U,
  0xbdb1471fbdb6ae31U, 0xbda7c950bdad3dc5U, 0xbd9e7a8abda352e4U, 0xbd93fd3dbd9906e0U,
  0xbd8b9fd2bd903b61U, 0xbd82819ebd871073U, 0xbd726699bd7ba350U, 0xbd5e201bbd6743c6U,
  0xbd4b99ebbd5503beU, 0xbd391c52bd42d20dU, 0xbd2603babd307047U, 0xbd12d3d9bd1ba3f1U,
  0xbcffe218bd094e00U, 0xbcd85134bcea7a9aU, 0xbcb353b9bcc6ace1U, 0xbc8d1726bca178e2U,
  0xbc54dae5bc74c357U, 0xbc0832ebbc32b1eaU, 0xbb6a064abbc31d51U, 0x3a8ffec8ba8c0cb0U,
  0x3bb81f653b693502U, 0x3c1f171b3c02f1cdU, 0x3c74cb5d3c49d6a3U, 0x3ca06cda3c8ee3eaU,
  0x3cc38a3f3cb2d391U, 0x3cebba2b3cd866b5U, 0x3d07a2413cfc35deU, 0x3d1ba9973d13260bU,
  0x3d2d4cc73d24afeaU, 0x3d415d043d377b8fU, 0x3d55ba543d4aecfdU, 0x3d67281c3d5e5f2fU,
  0x3d7af1543d70a916U, 0x3d8698b53d828276U, 0x3d8ffca73d8b993fU, 0x3d987e253d944c5cU,
  0x3da2f9453d9c973bU, 0x3dacc52d3da838dfU, 0x3db661703db157a5U, 0x3dbf881c3dbbee17U,
  0x3dc835463dc47c95U, 0x3dd2165b3dcdbae0U, 0x3ddc23943dd72637U, 0x3de483c33de091c9U,
  0x3dee85273de7fc0dU, 0x3df8c4183df3c19aU, 0x3e00b3843dfd26ccU, 0x3e0537dc3e033751U,
  0x3e0a07973e0823c7U, 0x3e0e8a3f3e0c22ddU, 0x3e143a783e116bbcU, 0x3e18716f3e1626b0U,
  0x3e1cf8533e1adcefU, 0x3e21db023e1f260dU, 0x3e2610883e2475f8U, 0x3e2b266e3e28b6c6U,
  0x3e2fe7c73e2ca291U, 0x3e35836b3e32ae9fU, 0x3e39a3e43e374ea6U, 0x3e3f54633e3c141eU,
  0x3e4382023e3ff59dU, 0x3e48183d3e45832dU, 0x3e4cc38a3e4a2937U, 0x3e5108483e4e7e76U,
  0x3e55f7123e53fb6cU, 0x3e5a73fe3e585ac2U, 0x3e601ccd3e5ca473U, 0x3e64c3303e620f43U,
  0x3e6958cd3e6688d0U, 0x3e6e13a13e6b42b0U, 0x3e7130a43e6f70a2U, 0x3e76bfba3e7451c1U,
  0x3e7b79f03e7a1ba8U, 0x3e8043db3e7eb484U, 0x3e82b3043e816fe3U, 0x3e84d9e83e836229U,
  0x3e878cd53e862a87U, 0x3e897ebe3e8887d9U, 0x3e8c13d43e8ae52bU, 0x3e8ed9ce3e8dc4d8U,
  0x3e91532c3e8f9fcfU, 0x3e92c0773e922729U, 0x3e95891c3e945a73U, 0x3e97b9653e96b7fcU,
  0x3e9a43c03e99535dU, 0x3e9c4bbd3e9b6fdeU, 0x3e9eebd53e9dcfbbU, 0x3ea15bb63ea02d0dU,
  0x4794805b568c7998U, 0x38ae6a8e84a67137U, 0x783a519e437d906bU, 0xae6a7390688a7f4fU,
  0x5d2b567919cb669aU, 0x6166798561399b96U, 0x6268346a5ea54c6fU, 0x88493f6f94ae7e14U,
  0xf18167b7595594a7U, 0xa7a2a68154039b70U, 0x4c808c7a416c9461U, 0xac89907a5d44349aU,
  0x3c457f1554a16a57U, 0xa8826441683a94a9U, 0xa898401391722184U, 0x6372a68388b58d63U,
  0x707b7867df8b6c38U, 0x876e8b12555a8507U, 0x8785d6a9488e4873U, 0x5f94417c8c3a80a1U,
  0x51168ab43b9d9402U, 0x6f7827c4b185838cU, 0x5c63827465989039U, 0xad708c705f909326U,
  0x7a3b6eaf6a77b7afU, 0x68019d8c816995caU, 0x69c1772a794c5e4bU, 0x3d62895e685655afU,
  0x46924d4efbb0498aU, 0x70ac6a76b0b0f8b4U, 0x5c96713e5e99949fU, 0x5e846651391a83abU,
  0xa465a5bb72473762U, 0x4b6de99a94886075U, 0x8bb35880ae9d6046U, 0xf2965e574d6f5014U,
  0x39849a8a501763a5U, 0x8f91538854a78d78U, 0xb2954ab884745a5dU, 0x75a0bab15e1e753bU,
  0x5b776f673cce7869U, 0x694a5d97948d8b1eU, 0xa688833a7ea08593U, 0x7bb63e49895f311aU,
  0x5e458f7e73405e42U, 0x47b632e06986aa6eU, 0x667265461d2b72b5U, 0x6d949d72baa12f67U,
  0x829794628415498eU, 0x532660ad7d807a4fU, 0x7c275c65976e6b76U, 0x538a2350949b687cU,
  0x9386766a8e9a89beU, 0x4f70ba6a99b3c691U, 0x745ebd9d59505f46U, 0x61b2366057576090U,
  0xe5546d6d627ff394U, 0x4e777b4784832c5aU, 0xaa923e3c6ca59c37U, 0xdfb8528f686c285eU,
  0x7d43d0a25aa86b46U, 0x667d7560794a512cU, 0xc19d51294e591d4dU, 0x6968525944a19fa2U,
  0x88a68c694a69b2b6U, 0x42347fbb4c3b5a1cU, 0x57478699925fafceU, 0x918689a2804a8770U,
  0xe65241bb3e974052U, 0xa07c29744a74648bU, 0x608c8a409d6b6302U, 0xa06e97a26f864670U,
  0xa06e497162985860U, 0x58b75f919b5336a6U, 0x36598a8d5b89373fU, 0xbba8689e91266190U,
  0x80b0486b43387675U, 0x845d34b1a16cc489U, 0x51a056278d9241a3U, 0x616a924f2f6b5963U,
  0xf68b6c363a8e9284U, 0x4ea4b94b25cf7473U, 0x47a5339e7a0f8176U, 0xac8f8d21636d3d99U,
  0x46721d7bbb885b8bU, 0x3d144d913443798bU, 0xbb3b56bf6795caabU, 0xa9bd446b80ae3954U,
  0x4fc4834979c65675U, 0xe76c54136186be4cU, 0x4c4879923f009893U, 0x7c9b624a452b9989U,
  0xd8af4ba143613a33U, 0x6e56efa9431b664cU, 0x9e4d9b6b689d7175U, 0x2e22a180644269b0U,
  0x7e55d67b3a1c5899U, 0x5e2095754682b07cU, 0xaa762a2d9964a783U, 0x8855eeaa4e872e79U,
  0x60c44a4b90685dc0U, 0x5d8d8a70c6bdc795U, 0x6692bca942216875U, 0xa67c9753e355508bU,
  0x2e49838953452551U, 0x7a9b366bbb8f5476U, 0x72b1976531808b90U, 0xbca4871b89293825U,
  0x577c3f8858765077U, 0xa04b4d56769373d7U, 0x2e1ea3815d43988bU, 0x7059c6794a2d7b74U,
  0xbd74c0629572b3bdU, 0x464aa3926a674b74U, 0xa1469d85551faa59U, 0x77a393524eb68492U,
  0x467b4e6a6a817728U, 0x9280ceb287b74b83U, 0x6aab7a897e7c4b5dU, 0xdd4648bd6b8b2922U,
  0x606a6fa4ab54545cU, 0x7c60445f5759ac84U, 0xa0733a4f4d69de87U, 0x258d62daac3ea48dU,
  0x7b85b489df9c6267U, 0xa9a7579a5c8c4d8eU, 0x4a7ccc6f60369645U, 0x5e0562935a7fb0c0U,
  0xff8a5dc05c4ec576U, 0x414c8617788e8f53U, 0x913797524d66798cU, 0x63b7ad594e51768bU,
  0x5f83661b76b6448aU, 0x74ad5955d5716367U, 0xd33c3f6c889af173U, 0x7c7adb915419785fU,
  0x8bbd473779567d12U, 0x204b9792756c2943U, 0x388b4f666880457eU, 0x9b8eab5b5f58a4d6U,
  0x81b8575459542ed5U, 0x6a5ad8896e556d7cU, 0xcb817c9c3e9749acU, 0x90665a0269a620b2U,
  0x4344382d9b816a40U, 0x87c2577c40675bb2U, 0xe25a52998b72a675U, 0xab66603899786943U,
  0x9c6a7641279e9aa4U, 0x983f7e5798546535U, 0x633a81c07f1a457eU, 0x7840c2985e329980U,
  0x58ad6880a1c58bb0U, 0xae53288e829b50a0U, 0xa0274f8e8e632cb9U, 0xc350599e7b8d7e8eU,
  0x778865b18822885aU, 0x6497646b51496e88U, 0xf69959a2723f4040U, 0x639322aebf828893U,
  0x2131998e355a9194U, 0xe5535d69908c8275U, 0x8d9a6a55b1657cbaU, 0x77ad3c4940538e8dU,
  0x34913d754bae5975U, 0x5f908e612819a182U, 0x4cbf4b6b89305f71U, 0x5b337e826d8c5b76U,
  0x6a4ccab4381a4291U, 0x7f2c6b5fc86d7717U, 0xbdac5570699dd860U, 0x63647e84637f9eabU,
  0xaa7979af74986452U, 0xdf885fb46158646aU, 0x82b196893c968973U, 0x4121aa4d2cd7b469U,
  0xe395362e8565aca0U, 0x446c8e5016408a60U, 0x99474994e9a8566eU, 0xbcaf3c2b88485abaU,
  0x835fd27d352f8460U, 0x8345545c796d7721U, 0xcca27d725c8b836aU, 0x8e6f41aa6f84bebbU,
  0x7447473c311f6bb4U, 0x77c1617acbad9cc2U, 0x8d41375e8a8cac88U, 0x5ca2647cdc574cafU,
  0x218692a23f77a359U, 0x988c7c7551106da6U, 0x8861b57b6b694991U, 0x5f726883666e949fU,
  0x60a4fd8265ae5e51U, 0x46646867324aa280U, 0x36c3a771bb75e1a0U, 0x71407656ad646dbfU,
  0x902461859fae8536U, 0x28744c667c786ba3U, 0x6f6ebea978c75957U, 0xb259b79a7faf7c19U,
  0x2d737c71759a1fdaU, 0xacaae2b03fa4705dU, 0x6ab665952a8c9c8eU, 0x2d5d9f9d4e5fb6adU,
  0x62592896be794976U, 0x7db17c6974976b42U, 0x7330997a434f9c46U, 0x8e558e874a14867dU,
  0x4a575288baaf7bafU, 0x25d0c579929de19dU, 0x3f758cb356aa9769U, 0xac9b6292fa946341U,
  0x4f5e66a571422ec3U, 0x9b46df68695b6981U, 0x83894a37708aa031U, 0xd48f4e126d815555U,
  0xb86bf79f54aa4667U, 0x749a57a481465698U, 0xd7744d2375723934U, 0x6847383486a75160U,
  0x51b1364adc969134U, 0x910a6f7a6177d1a6U, 0x6b932edda48075a3U, 0x341d966761a3a45eU,
  0x40339589584cc97dU, 0xcecc605daa6e7ab8U, 0x6b79825e7f8f815dU, 0x2f17a19238483864U,
  0x8a945736b0656377U, 0x91859da22db58d72U, 0x3c529a7d827f3355U, 0x809e8a969d1b4b8cU,
  0x3f0660ab3cd6976bU, 0x425e6c817c41a599U, 0x71af606279bb5b4bU, 0x56924d9c373a6677U,
  0x2a5069945044d859U, 0x5ea6564190876244U, 0xaa9f434448aebc75U, 0x70aa82545f5d5140U,
  0x9db9a9a382968066U, 0x5d215b564d60527eU, 0xb18a918965936e61U, 0x6193a1a79f9d5b81U,
  0x7fbb5558725193c3U, 0x813b62667489b974U, 0x5e54ef9965484774U, 0x5b75829ea66eae4aU,
  0x94af7b1f79436498U, 0x997740384ea8496bU, 0x7492348b21857eb3U, 0x6dae7c876548555eU,
  0x8a4f7b9b47c54c66U, 0x78a46e42c690778dU, 0xc3a594c045843c3fU, 0x626b54277dad7b73U,
  0x9dcd756c46a2a268U, 0xd592a8c582617086U, 0x83895f478c6f8838U, 0x8ad28256d7a9555cU,
  0x2753a9999087987dU, 0x314e9a5f86205865U, 0x3aa0568b3d15a482U, 0xa3608b4d7a85908cU,
  0x46453180849c997aU, 0x86af7c8b6922a783U, 0xa37e4b4c727cc49cU, 0x99444535b48b6c59U,
  0x36c75c5390786072U, 0x7c609b55c3671ba0U, 0x6e65424f9c8a449aU, 0xac975068d98b6b40U,
  0xa8bd744849526130U, 0x5b4277baa1404f40U, 0x8c8ab064564b77aaU, 0x46297d64b9ba4671U,
  0x66876e41527e94b8U, 0x86974261a2b08197U, 0x576ba956b9865730U, 0x835ab2aa8ca96698U,
  0x831c6041494e7062U, 0x738c82c04f989dbdU, 0x4390d8946c5b7444U, 0x568a5d57514e706eU,
  0xc5a5888a6280d09fU, 0x8bb053d88e786d94U, 0x5e7333777951a773U, 0x91894d059484eb9eU,
  0x748e720b929c9358U, 0x5f769c4e436d9195U, 0x616c5d3b8356804aU, 0x447d86ac7915568bU,
  0x5e747d7268b68338U, 0x436265986b61bc7eU, 0x619b3d9ca3b03746U, 0x8b2f803aca726810U,
  0x8aaf9240ad5a64b7U, 0x92924e347c922f81U, 0x8a6fa96c43c29b69U, 0xa9995832665049d1U,
  0x3d46faf1bd9753b2U, 0xbbd4f96abd8577a9U, 0x3db1d8fcbd0f3895U, 0x3c896370bbde06c6U,
  0x3d973f283d9bb29aU, 0x3d9708453e00c446U, 0x3d87c2a5bd1e43feU, 0x3d17d61e3d63960aU,
  0x3dac77913b3e0fe2U, 0xbd2b45ea3c7d6722U, 0x3d3349513dbc710eU, 0xbd99adbc3af71957U,
  0xbde5e0a63d45c20fU, 0x3d87a0423c01afdbU, 0x3d42fbae3d828339U, 0x3df1c737bd86b37cU,
  0x3d64a14fbd7c8fdcU, 0x3d421fc2bdd8bed5U, 0x3d955caabdb812b1U, 0xbd70f58f3da079c4U,
  0x3dacebddbe207aaeU, 0x3de5ad063dc7fadfU, 0x3d45439b3dcdac6fU, 0x3d8fb32f3d920978U,
  0xbe1dd737bd317087U, 0x3d7995e4bdaf2f1bU, 0xbd01902c3da9dca4U, 0x3e0562efbd27c8fcU,
  0x3cba1740bdecbf0eU, 0x3d462e213df19f84U, 0x3dd5bfa03d30c8fbU, 0xbcb4b4cb3d9c8a09U,
  0x3d022bd1bd650744U, 0xbdb54053bddcfd45U, 0x3d1103153dd331d9U, 0x3c03c9243d8496d7U,
  0x3cf758953d546336U, 0x3c76b8e73dc9d646U, 0x3da7d8ca3d187376U, 0x3de857b13d2cb0b1U,
  0xbd238d1f3da0b2c7U, 0x3cf01b6d3e05799bU, 0xbd5cd55d3e22682fU, 0x3e0521303d76ed64U,
  0x3d1fc7a5bdf037e2U, 0xbc07c43d3dd75e94U, 0xbcbd378c3dac2986U, 0x3d6394fb3d8c6a10U,
  0xbdc072023d5e8164U, 0x3db6b07a3defb6d7U, 0x3de9d0d13d1dc9d1U, 0xbdce7bcb3df2df7eU,
  0x3dcd90d03d19c7e3U, 0x3d4c234abdaa1ff3U, 0xbc22b0bfbd9537c7U, 0x3dcb50023cce4a64U,
  0x3db6affebd447e47U, 0xbd09edf73cca8989U, 0xbd9241db3b4860daU, 0x3d497d03bc054e36U,
  0x3d8cb69abda49ac2U, 0x3d8140a63e043c7fU, 0x3d68813b3c8dfbd7U, 0x3d97e3afbdc49221U,
  0xbdaf4d823d97c566U, 0x3d826dc9bc19f49eU, 0xbdef284e3d813d7fU, 0xbd506e253d567a17U,
  0x3d176a2f3cc0921dU, 0x3d5ecc373dc1af4bU, 0x3de62a5cbccb04eaU, 0x3e0841df3da27f68U,
  0x3bda6b923d082666U, 0x3d99fc3a3de8600bU, 0x3d3560323d5dbd6aU, 0x3dc415d63d657dfeU,
  0x3cb1209dbce7c5a2U, 0x3da8192d3d5fdbc1U, 0xbdc8743e3dd2c05dU, 0xbc01e8373db0a0b8U,
  0xbcb6e4cebe3e42e6U, 0xbdb6a6dc3d583b5dU, 0x3d280d4fbc534f2aU, 0x3dd2142cbcad2870U,
  0xbd2a659e3cf7cc4fU, 0x3daa0173bcda0d92U, 0x3be8cba13d0bb860U, 0xbe66ed113d04c27eU,
  0x3d5f18b23d860969U, 0xbd1210963d8f0c14U, 0xbd598f323a96e03bU, 0x3df737313d8e3872U,
  0x3d1c4b603d7ee866U, 0x3d067b263d810cf0U, 0x3d1248a03e1529d5U, 0xbd28403c3d8bf740U,
  0x3dd5e1163d8b9cc2U, 0xba5909f33d9b6cb0U, 0x3ddc02d63d5142eaU, 0xbd9cef863d5c01f0U,
  0x3d7f723b3d990402U, 0xbd659dbbbe1f3da2U, 0xbdae50443c7133e4U, 0xbc24c6aa3d526f8cU,
  0x3d2706363d62aeb2U, 0x3d893a1f3cd5021cU, 0x3dc6f8733d7a5f2fU, 0x3d55b02f3c7a1aa5U,
  0x3ddbbc5a3bacfe08U, 0x3d48a6013beb0100U, 0xbd7192f13d3dd2feU, 0x3ce6016a3d2dd1c3U,
  0xbc61de243d0547efU, 0x3e15acaa3d6f56aaU, 0xbd528d86bd3bf807U, 0x3d89d5913b982397U,
  0x3d30cf42bcc3ed5aU, 0x3dee3881bb0ae06fU, 0x3d2b90913ba47facU, 0x3d253a2dbe524f86U,
  0xbd5ff5273d981063U, 0x3d83be21bd50dd26U, 0x3dce3b6cbd64038eU, 0xbd967ff73dd972a2U,
  0x3c067d633de5a6fbU, 0x3c1c79b5bc84fa91U, 0x3df7e571bdd77592U, 0x3d36e4f5be21b813U,
  0x3dd6bab23d9ab8abU, 0x3cff94e73db21c82U, 0x3e0a47923b880461U, 0x3dd0b3b53d4cce14U,
  0x3d7e7de13dbf53d8U, 0x3daab6b13cfaf4d6U, 0x3c9d1ca43de7162bU, 0x3d2d0a233daed664U,
  0xbd6cdaaabdd6c10aU, 0x3d6a8d76bd6c0f74U, 0x3ddb0e59bd66b272U, 0x3d5b009c3db34cdbU,
  0x3d5cc1a23daff3cbU, 0x3dc14a613da214a3U, 0x3d67023f3d5bbcf1U, 0xbbe5d6a73cbbd611U,
  0xbe13a6943d971b6bU, 0x3d565fbc3d7010f3U, 0x3df184753e09e74eU, 0x3c1b16be3ceca535U,
  0xbdb551233d6efe1dU, 0x3d81fc363d9b3eceU, 0xbd0efd1b3bef8f9fU, 0x3daed01d3de072f6U,
  0xbd2bc2ad3d8f0c8eU, 0x3dbf12193df21012U, 0xbcd70fbe3d485db4U, 0x3d9ef20abd3d417dU,
  0x3d6d076dbd86e291U, 0x3decc4ba3c34127eU, 0x3d8ad4ea3d58ed49U, 0x3d43be343d88d7b1U,
  0x3e083a923d91b19fU, 0x3cd12624be0b24e6U, 0xbb8a93b63ba2fb2dU, 0xbd780a4fbc04f7e7U,
  0x3d25ac1c3d85ba46U, 0x3dc226f8bd7b1d6bU, 0x3e0c9bfd3d706b72U, 0xbdddcab63d7e86b7U,
  0x3df19f2abd2ea76dU, 0x3db187ee3e11af70U, 0xbe37f7543d80bc02U, 0x3cf5a8083d362e5bU,
  0x3e29bff6be01d37cU, 0x3e1d1c983d8b1a51U, 0x3db08776bd843114U, 0xbd955619bd7028c3U,
  0x3d6fcd8e3de675beU, 0x3d2306593deb1ad0U, 0xbdbe797e3dce843cU, 0xbc4d49df3d60d139U,
  0x3d2efb523d97899cU, 0x3e22a8cb3dad5671U, 0x3dd1e9073dcd9912U, 0x3df927f83dd6a4b2U,
  0x3d8c6f5a3e1aca8fU, 0x3c00f0203ddf884dU, 0x3ddeed313d70b0bfU, 0x3c89fe483d8cf3e2U,
  0x3dd5cbbe3d39f151U, 0x3dc0915e3d57580dU, 0xbab4c6bcbbb4c6caU, 0xbd3aa0003d2dedb4U,
  0x3ddb819d3d645866U, 0xbdaf3eecbd27e646U, 0x3d4fd0ea3d743479U, 0x3dc7dfd33d8d83d6U,
  0x3c814797bd85b856U, 0xbdf2a1d93d8b167bU, 0x3cb9f5c33ded0969U, 0x3ca00d53bce57ab5U,
  0xbdebb59bbd471e98U, 0x3e1e8679be207b59U, 0x3e8cd1083d0cd2d3U, 0x3e16f265bdf1ed4eU,
  0xbe1201663e5bb510U, 0xbe61eef4be67d799U, 0x3e03e6e8bebbbfe8U, 0xbe15be4f3e49586aU,
  0x3e0f06183e0dcd9cU, 0xbe75c0b73e0c03b2U, 0xbea43303bd6af90cU, 0xbdb9f8f03dd56cd6U,
  0xbe0bc75dbe85577bU, 0x3e3c6ff43e806bd3U, 0xbd7e185c3e829f27U, 0xbe14d5713db88c37U,
  0xbe217da73dc7f3a2U, 0xbd8c889cbe7de4e7U, 0xbeca48d93e40bd8bU, 0x3e692befbec6cd5bU,
  0x3e59cf38be3b1832U, 0xbe42c9c93dc89058U, 0xbe748df5be5cd4f0U, 0xbe9c40f23e57d5cbU,
  0x3e30d8f7be909a44U, 0xbdf1ed8bbdf8b213U, 0x3e52865abe3bcd33U, 0x3df71ee13ddf03d6U,
  0xbe70c701be03b2cbU, 0x3df881173e1c5b83U, 0x3e417bd13e861d2aU, 0x3cec578e3e0c4decU,
  0xbd5e7af1be1391b3U, 0x3d954dcfbe45a857U, 0xbdaf6ffd3e5c8147U, 0x3e4213b0bd9eb26dU,
  0x3d911586be08ee31U, 0xbe2e9992beb36c66U, 0xbddcd20d3de0428cU, 0xbe6f16e03e270510U,
  0xbd81d40cbe8c421bU, 0xbe52f8df3e05e0f1U, 0xbe6c98aa3de01b28U, 0x3e28a3e23dfe1fbfU,
  0x3d717d703e3ccd2fU, 0xbe662a213e3a72b0U, 0xbea62b3a3dd87dd3U, 0xbd8af7773e2cc971U,
  0xbdf6a6593e0d4091U, 0x3e34cf803e1defafU, 0x3de014ddbdaafb22U, 0xbe466266be47ff94U,
  0x3d719cd23e2c9663U, 0xbeec6cc93d2223d4U, 0x3e504157be3463c4U, 0xbe81c7223e7bd4c9U,
  0x3decb27d3e4bc49dU, 0xbe4701c8bebe4aefU, 0x3e302a203de8f4f4U, 0xbec7e005be773310U,
  0x3e63efcabe86531dU, 0xbe6bcc4d3ddee71eU, 0xbcd252f2beb64e85U, 0x3e311b823e57645eU,
  0x3da259dcbe7d044cU, 0xbe436e12beb7bb83U, 0xbe91ab9fbe9d4bf4U, 0x3e412324be8e6663U,
  0xbdc678ddbe6b6411U, 0x3e38e6e63e141d3cU, 0x3e52f7353dcf775dU, 0xbe19709e3e782f67U,
  0xbe16e3973d0a551dU, 0x3e3a47dabe06daacU, 0xbe1a00e9be939f62U, 0x3e67feae3dd3b08eU,
  0x3e2a6d8ebe9ec7edU, 0x3deccd0c3dcca3d1U, 0x3e6f14eabe583ad8U, 0xbe0cf5493e1fa60eU,
  0x3d5548353e20fb36U, 0xbda1d063be88b47eU, 0xbec2cb143e296450U, 0xbe6a27773d4aa62bU,
  0xbe159fc4be8096d9U, 0xbe7b882abee2f12dU, 0x3e172e5a3e27f70eU, 0x3e28c8acbe20dd06U,
  0xbdd37f033e3e9ad4U, 0xbd99e7b2be83c571U, 0xbe0efb6ebea4c115U, 0x3e30d0083e4b0d76U,
  0xbe33bc2e3d1ed350U, 0xbcc8b5023e4a4149U, 0x3e3c5171be17ede7U, 0xbeae0dd93e898e50U,
  0x3e01618a3dff10c6U, 0xbe26a08cbde5b3ebU, 0x3e883b4f3e240d41U, 0x3db2a4593d9ba286U,
  0x3dcfd3b5be43d1b5U, 0x3e3518b23e9256b6U, 0xbe63026a3dff1fe8U, 0xbd5ca3a3be136406U,
  0x3df2b406bdab9cafU, 0xbe733ab33d3bf22dU, 0x3e53f8db3e58497aU, 0xbd96f313be5a03a9U,
  0x3e8522be3e3ca622U, 0x3d8cc2c53e16dabaU, 0x3db7771abe287874U, 0x3da5db463e3604a3U,
  0xbe5ac68cbebb16e6U, 0xbe489f85be8a3253U, 0xbd8b33a63d20d634U, 0xbe0abed63e1022caU,
  0x3e28ee72bdbca01cU, 0xbe5a94a9be57bbf3U, 0xbe983640be2a27c6U, 0xbe66fab03e7cc9f6U,
  0xbdd80423bec33303U, 0xbdd965debd2539beU, 0x3e0af68b3e340183U, 0x3e14c959be5c247dU,
  0xbe6cfec23e373a19U, 0x3e2e0b82be2059e8U, 0x3e06f8c1be576324U, 0x3ca54b7c3e8e3a2dU,
  0x3e531cc5be7e43f0U, 0x3dedff65be2ada2cU, 0xbe24185f3e30f723U, 0x3e063d28bdf4d1abU,
  0xbe303083be124adeU, 0x3ded4e473e73611cU, 0x3e034083be11766bU, 0x3e42272abe16bce6U,
  0xbd4b6a0e3e2cbe90U, 0x3d75ebb0bde84912U, 0xbe0259d4be9d2e57U, 0x3e39aa6fbe701c14U,
  0xbeb8d197bd9ef5b4U, 0x3e5bd53e3e085f7aU, 0xbe12140fbe41c7e0U, 0xbedbc5e93da38eaaU,
  0xbe6c68a0be70f435U, 0xbed4c6b23e838cafU, 0xbe6c198c3e619805U, 0x3ddf4db8be975c92U,
  0x3d9292b73e050bedU, 0x3e591657bec10f19U, 0x3e12ec2c3d8a2623U, 0x3e88bcb03dcd0bd0U,
  0x3e0a45dc3dd0c71cU, 0x3dcf57ca3e5a6e8fU, 0x3e3ec09ebe0f9d2cU, 0x3e02ef4fbea9084bU,
  0x3e11c924bdfde184U, 0x3dc73097bdb7b6e2U, 0x3dcb1d953e56194cU, 0xbd3e13023e412373U,
  0x3e01e5f3bd98b039U, 0xbd17ed7abde02287U, 0xbdf8edacbd79bfc9U, 0x3d90cedabe4ff83dU,
  0xbdc78c46be9888cdU, 0xbdfef1ab3e844eb0U, 0x3e4bcb143d885ca8U, 0x3e23a7e83e2f6383U,
  0xbe31ed0bbec24ba7U, 0xbe20154f3e374bfbU, 0x3e6a79e23e257027U, 0xbe417e01bd939c9eU,
  0xbe45ea51be3a1cccU, 0x3e277685be3b9459U, 0x3e1f12a5be08424aU, 0xbe5d9a0dbe1648d5U,
  0x3e02de853e879306U, 0xbe41a9c0be1d4093U, 0x3d8091753e408366U, 0x3ddf16323e83cb40U,
  0xbec845dc3e57734bU, 0xbe6a1b853e888d69U, 0x3e4849d0be2f6ca9U, 0x3e1b97bf3e714df5U,
  0xbd508ba33e1a83dbU, 0x3db17ddd3e7348e2U, 0x3dd15770bd993442U, 0xbdfc5a41be4e6f0bU,
  0x3e057a9fbea94e93U, 0xbda854e4be61af7fU, 0x3dc64eba3e1d1bafU, 0xbea18388be91d482U,
  0x3e38a3db3e6be187U, 0xbd925b9a3d33ceddU, 0xbe1b15a6be7008e5U, 0x3e195365bda23edaU,
  0xbedcdb093e09a246U, 0x3e7d8cd5be172aa4U, 0x3e0cc6823e631c68U, 0xbe258b373e796ba5U,
  0xb9d919c3U,
};


ai_handle g_network_weights_table[1 + 2] = {
  AI_HANDLE_PTR(AI_MAGIC_MARKER),
  AI_HANDLE_PTR(s_network_weights_array_u64),
  AI_HANDLE_PTR(AI_MAGIC_MARKER),
};

